{
  "vocab": {
    "\n": 0,
    "\n\n": 1,
    " ": 2,
    "!": 3,
    "\"": 4,
    "#": 5,
    "$": 6,
    "%": 7,
    "&": 8,
    "'": 9,
    "'s": 10,
    "(": 11,
    ")": 12,
    "+": 13,
    ",": 14,
    "-": 15,
    ".": 16,
    ".\n\n": 17,
    ".\n\nIn": 18,
    ".\n\nThe": 19,
    "/": 20,
    "0": 21,
    "00": 22,
    "1": 23,
    "18": 24,
    "19": 25,
    "199": 26,
    "2": 27,
    "20": 28,
    "200": 29,
    "201": 30,
    "3": 31,
    "4": 32,
    "5": 33,
    "6": 34,
    "7": 35,
    "8": 36,
    "9": 37,
    ":": 38,
    ";": 39,
    "<": 40,
    "=": 41,
    "?": 42,
    "@": 43,
    "@,": 44,
    "@,@": 45,
    "@-": 46,
    "@-@": 47,
    "@.": 48,
    "@.@": 49,
    "A": 50,
    "Al": 51,
    "An": 52,
    "Ar": 53,
    "As": 54,
    "B": 55,
    "Brit": 56,
    "British": 57,
    "C": 58,
    "Ch": 59,
    "D": 60,
    "De": 61,
    "E": 62,
    "F": 63,
    "Fe": 64,
    "G": 65,
    "Ger": 66,
    "H": 67,
    "He": 68,
    "I": 69,
    "II": 70,
    "In": 71,
    "Ind": 72,
    "It": 73,
    "J": 74,
    "Jordan": 75,
    "K": 76,
    "L": 77,
    "M": 78,
    "N": 79,
    "O": 80,
    "P": 81,
    "Pol": 82,
    "Polish": 83,
    "Q": 84,
    "R": 85,
    "Re": 86,
    "Ro": 87,
    "S": 88,
    "Se": 89,
    "Sh": 90,
    "She": 91,
    "St": 92,
    "T": 93,
    "Th": 94,
    "The": 95,
    "Town": 96,
    "U": 97,
    "Un": 98,
    "V": 99,
    "W": 100,
    "Whe": 101,
    "Wheeler": 102,
    "X": 103,
    "Y": 104,
    "York": 105,
    "Z": 106,
    "[": 107,
    "]": 108,
    "a": 109,
    "ab": 110,
    "able": 111,
    "about": 112,
    "ac": 113,
    "ace": 114,
    "ach": 115,
    "ack": 116,
    "act": 117,
    "ad": 118,
    "ade": 119,
    "ae": 120,
    "aeolog": 121,
    "af": 122,
    "after": 123,
    "ag": 124,
    "age": 125,
    "ail": 126,
    "ain": 127,
    "air": 128,
    "ak": 129,
    "ake": 130,
    "al": 131,
    "album": 132,
    "all": 133,
    "ally": 134,
    "als": 135,
    "also": 136,
    "am": 137,
    "ame": 138,
    "an": 139,
    "ance": 140,
    "and": 141,
    "ang": 142,
    "ann": 143,
    "ans": 144,
    "ant": 145,
    "any": 146,
    "ap": 147,
    "ar": 148,
    "arch": 149,
    "ard": 150,
    "ards": 151,
    "are": 152,
    "arg": 153,
    "ark": 154,
    "ars": 155,
    "art": 156,
    "ary": 157,
    "as": 158,
    "ase": 159,
    "ased": 160,
    "ason": 161,
    "ass": 162,
    "ast": 163,
    "at": 164,
    "ate": 165,
    "ated": 166,
    "ater": 167,
    "ates": 168,
    "ath": 169,
    "ation": 170,
    "ational": 171,
    "ations": 172,
    "att": 173,
    "au": 174,
    "av": 175,
    "ave": 176,
    "aw": 177,
    "ay": 178,
    "az": 179,
    "b": 180,
    "be": 181,
    "been": 182,
    "being": 183,
    "ber": 184,
    "bo": 185,
    "bu": 186,
    "bum": 187,
    "but": 188,
    "by": 189,
    "c": 190,
    "came": 191,
    "ce": 192,
    "ced": 193,
    "cent": 194,
    "cer": 195,
    "ces": 196,
    "cess": 197,
    "ch": 198,
    "char": 199,
    "cho": 200,
    "ci": 201,
    "ck": 202,
    "cl": 203,
    "co": 204,
    "com": 205,
    "comm": 206,
    "comp": 207,
    "con": 208,
    "cond": 209,
    "cons": 210,
    "cont": 211,
    "cre": 212,
    "ct": 213,
    "cted": 214,
    "ction": 215,
    "d": 216,
    "de": 217,
    "des": 218,
    "dis": 219,
    "du": 220,
    "during": 221,
    "e": 222,
    "ear": 223,
    "ed": 224,
    "een": 225,
    "el": 226,
    "eler": 227,
    "ell": 228,
    "ely": 229,
    "em": 230,
    "ember": 231,
    "en": 232,
    "ence": 233,
    "end": 234,
    "ens": 235,
    "ent": 236,
    "ents": 237,
    "er": 238,
    "ere": 239,
    "ered": 240,
    "ers": 241,
    "erson": 242,
    "es": 243,
    "ess": 244,
    "est": 245,
    "et": 246,
    "ev": 247,
    "ever": 248,
    "ew": 249,
    "ex": 250,
    "f": 251,
    "fe": 252,
    "fer": 253,
    "film": 254,
    "fin": 255,
    "fir": 256,
    "first": 257,
    "fl": 258,
    "for": 259,
    "fore": 260,
    "form": 261,
    "four": 262,
    "from": 263,
    "ft": 264,
    "g": 265,
    "game": 266,
    "gan": 267,
    "ge": 268,
    "gen": 269,
    "gh": 270,
    "go": 271,
    "god": 272,
    "gods": 273,
    "gro": 274,
    "gy": 275,
    "h": 276,
    "had": 277,
    "has": 278,
    "have": 279,
    "he": 280,
    "her": 281,
    "high": 282,
    "him": 283,
    "his": 284,
    "i": 285,
    "ia": 286,
    "ial": 287,
    "ian": 288,
    "ib": 289,
    "ic": 290,
    "ical": 291,
    "ice": 292,
    "ich": 293,
    "ick": 294,
    "ict": 295,
    "id": 296,
    "ide": 297,
    "ie": 298,
    "ied": 299,
    "iel": 300,
    "ies": 301,
    "iew": 302,
    "if": 303,
    "ig": 304,
    "igh": 305,
    "ight": 306,
    "ign": 307,
    "il": 308,
    "ild": 309,
    "ile": 310,
    "ill": 311,
    "ilm": 312,
    "im": 313,
    "in": 314,
    "incl": 315,
    "includ": 316,
    "ind": 317,
    "ine": 318,
    "ing": 319,
    "ings": 320,
    "ins": 321,
    "int": 322,
    "inter": 323,
    "into": 324,
    "ion": 325,
    "ions": 326,
    "ious": 327,
    "ip": 328,
    "ir": 329,
    "ire": 330,
    "is": 331,
    "ish": 332,
    "ished": 333,
    "ist": 334,
    "it": 335,
    "ite": 336,
    "ited": 337,
    "ith": 338,
    "ities": 339,
    "ition": 340,
    "its": 341,
    "ity": 342,
    "iv": 343,
    "ive": 344,
    "ix": 345,
    "iz": 346,
    "j": 347,
    "je": 348,
    "ject": 349,
    "k": 350,
    "ke": 351,
    "kn": 352,
    "l": 353,
    "land": 354,
    "later": 355,
    "ld": 356,
    "le": 357,
    "led": 358,
    "les": 359,
    "li": 360,
    "lo": 361,
    "ly": 362,
    "m": 363,
    "made": 364,
    "main": 365,
    "man": 366,
    "many": 367,
    "me": 368,
    "ment": 369,
    "mer": 370,
    "min": 371,
    "mo": 372,
    "mon": 373,
    "more": 374,
    "most": 375,
    "my": 376,
    "n": 377,
    "ne": 378,
    "new": 379,
    "no": 380,
    "not": 381,
    "num": 382,
    "o": 383,
    "ob": 384,
    "oc": 385,
    "od": 386,
    "of": 387,
    "off": 388,
    "og": 389,
    "ok": 390,
    "ol": 391,
    "old": 392,
    "oll": 393,
    "ollow": 394,
    "olog": 395,
    "om": 396,
    "ome": 397,
    "on": 398,
    "one": 399,
    "ong": 400,
    "only": 401,
    "ony": 402,
    "op": 403,
    "or": 404,
    "ord": 405,
    "ordan": 406,
    "ore": 407,
    "ork": 408,
    "orn": 409,
    "ors": 410,
    "ort": 411,
    "orth": 412,
    "ory": 413,
    "ot": 414,
    "other": 415,
    "ou": 416,
    "ough": 417,
    "ould": 418,
    "oun": 419,
    "ound": 420,
    "our": 421,
    "ous": 422,
    "out": 423,
    "outh": 424,
    "ov": 425,
    "over": 426,
    "ow": 427,
    "ower": 428,
    "own": 429,
    "p": 430,
    "part": 431,
    "pe": 432,
    "per": 433,
    "ph": 434,
    "pl": 435,
    "play": 436,
    "po": 437,
    "point": 438,
    "pol": 439,
    "port": 440,
    "pos": 441,
    "pp": 442,
    "pr": 443,
    "pre": 444,
    "pres": 445,
    "present": 446,
    "pro": 447,
    "produ": 448,
    "pt": 449,
    "publ": 450,
    "q": 451,
    "qu": 452,
    "r": 453,
    "ra": 454,
    "raft": 455,
    "ran": 456,
    "re": 457,
    "reat": 458,
    "rec": 459,
    "record": 460,
    "red": 461,
    "ree": 462,
    "reg": 463,
    "rel": 464,
    "rele": 465,
    "ren": 466,
    "res": 467,
    "ret": 468,
    "ri": 469,
    "ric": 470,
    "rit": 471,
    "ro": 472,
    "rom": 473,
    "ron": 474,
    "rough": 475,
    "ru": 476,
    "ry": 477,
    "s": 478,
    "sa": 479,
    "sc": 480,
    "se": 481,
    "season": 482,
    "second": 483,
    "sel": 484,
    "send": 485,
    "ser": 486,
    "sh": 487,
    "she": 488,
    "ship": 489,
    "sing": 490,
    "sion": 491,
    "sk": 492,
    "so": 493,
    "some": 494,
    "son": 495,
    "song": 496,
    "sp": 497,
    "spe": 498,
    "spec": 499,
    "st": 500,
    "str": 501,
    "stru": 502,
    "su": 503,
    "sub": 504,
    "such": 505,
    "sy": 506,
    "t": 507,
    "te": 508,
    "team": 509,
    "ted": 510,
    "ten": 511,
    "ter": 512,
    "tern": 513,
    "th": 514,
    "than": 515,
    "that": 516,
    "the": 517,
    "their": 518,
    "them": 519,
    "then": 520,
    "ther": 521,
    "they": 522,
    "this": 523,
    "though": 524,
    "three": 525,
    "through": 526,
    "tim": 527,
    "time": 528,
    "to": 529,
    "ton": 530,
    "tra": 531,
    "ts": 532,
    "tw": 533,
    "two": 534,
    "ty": 535,
    "u": 536,
    "ub": 537,
    "ubl": 538,
    "ud": 539,
    "ue": 540,
    "ugh": 541,
    "ul": 542,
    "ular": 543,
    "ull": 544,
    "ult": 545,
    "um": 546,
    "un": 547,
    "und": 548,
    "under": 549,
    "up": 550,
    "ur": 551,
    "ure": 552,
    "uring": 553,
    "urn": 554,
    "us": 555,
    "use": 556,
    "used": 557,
    "usic": 558,
    "ust": 559,
    "ut": 560,
    "v": 561,
    "ve": 562,
    "ved": 563,
    "vel": 564,
    "ver": 565,
    "vis": 566,
    "w": 567,
    "was": 568,
    "way": 569,
    "we": 570,
    "were": 571,
    "wh": 572,
    "when": 573,
    "where": 574,
    "which": 575,
    "while": 576,
    "who": 577,
    "with": 578,
    "work": 579,
    "would": 580,
    "writ": 581,
    "x": 582,
    "y": 583,
    "year": 584,
    "z": 585,
    "~": 586,
    "£": 587,
    "°": 588,
    "²": 589,
    "µ": 590,
    "º": 591,
    "Ä": 592,
    "Å": 593,
    "Æ": 594,
    "Ñ": 595,
    "Ö": 596,
    "ß": 597,
    "á": 598,
    "ã": 599,
    "ä": 600,
    "å": 601,
    "è": 602,
    "é": 603,
    "í": 604,
    "ñ": 605,
    "ó": 606,
    "ô": 607,
    "ö": 608,
    "ú": 609,
    "ü": 610,
    "ā": 611,
    "ă": 612,
    "ą": 613,
    "ć": 614,
    "č": 615,
    "đ": 616,
    "ĕ": 617,
    "ę": 618,
    "ğ": 619,
    "Ł": 620,
    "ł": 621,
    "ń": 622,
    "Ō": 623,
    "ō": 624,
    "ś": 625,
    "Š": 626,
    "š": 627,
    "ū": 628,
    "ź": 629,
    "Ż": 630,
    "ż": 631,
    "ɪ": 632,
    "έ": 633,
    "ή": 634,
    "ί": 635,
    "α": 636,
    "β": 637,
    "γ": 638,
    "δ": 639,
    "θ": 640,
    "ι": 641,
    "μ": 642,
    "ν": 643,
    "ο": 644,
    "ρ": 645,
    "ς": 646,
    "σ": 647,
    "τ": 648,
    "χ": 649,
    "ό": 650,
    "К": 651,
    "а": 652,
    "в": 653,
    "з": 654,
    "й": 655,
    "к": 656,
    "н": 657,
    "р": 658,
    "с": 659,
    "ы": 660,
    "إ": 661,
    "ت": 662,
    "ث": 663,
    "د": 664,
    "س": 665,
    "م": 666,
    "ي": 667,
    "ก": 668,
    "ค": 669,
    "ง": 670,
    "ช": 671,
    "ซ": 672,
    "ญ": 673,
    "ฐ": 674,
    "ณ": 675,
    "ด": 676,
    "ต": 677,
    "บ": 678,
    "ป": 679,
    "พ": 680,
    "ภ": 681,
    "ม": 682,
    "ย": 683,
    "ร": 684,
    "ล": 685,
    "ว": 686,
    "ศ": 687,
    "ษ": 688,
    "ส": 689,
    "ห": 690,
    "อ": 691,
    "ั": 692,
    "า": 693,
    "ิ": 694,
    "ี": 695,
    "ึ": 696,
    "เ": 697,
    "แ": 698,
    "ไ": 699,
    "็": 700,
    "่": 701,
    "้": 702,
    "๊": 703,
    "์": 704,
    "ḏ": 705,
    "ṯ": 706,
    "ἀ": 707,
    "ἰ": 708,
    "ὑ": 709,
    "–": 710,
    "—": 711,
    "‘": 712,
    "’": 713,
    "“": 714,
    "”": 715,
    "…": 716,
    "₤": 717,
    "₹": 718,
    "−": 719,
    "い": 720,
    "う": 721,
    "か": 722,
    "が": 723,
    "き": 724,
    "く": 725,
    "し": 726,
    "た": 727,
    "つ": 728,
    "な": 729,
    "の": 730,
    "め": 731,
    "も": 732,
    "ら": 733,
    "ァ": 734,
    "ア": 735,
    "キ": 736,
    "ュ": 737,
    "リ": 738,
    "ル": 739,
    "ヴ": 740,
    "乙": 741,
    "光": 742,
    "名": 743,
    "君": 744,
    "命": 745,
    "咲": 746,
    "場": 747,
    "女": 748,
    "戦": 749,
    "灯": 750,
    "瘡": 751,
    "花": 752,
    "誓": 753,
    "誰": 754,
    "赤": 755,
    "運": 756,
    "銃": 757,
    "願": 758,
    "﻿": 759,
    "３": 760,
    "�": 761
  },
  "merges": [
    {
      "pair": [
        "t",
        "h"
      ],
      "token": "th"
    },
    {
      "pair": [
        "i",
        "n"
      ],
      "token": "in"
    },
    {
      "pair": [
        "e",
        "r"
      ],
      "token": "er"
    },
    {
      "pair": [
        "a",
        "n"
      ],
      "token": "an"
    },
    {
      "pair": [
        "th",
        "e"
      ],
      "token": "the"
    },
    {
      "pair": [
        "o",
        "n"
      ],
      "token": "on"
    },
    {
      "pair": [
        "e",
        "d"
      ],
      "token": "ed"
    },
    {
      "pair": [
        "o",
        "r"
      ],
      "token": "or"
    },
    {
      "pair": [
        "a",
        "t"
      ],
      "token": "at"
    },
    {
      "pair": [
        "r",
        "e"
      ],
      "token": "re"
    },
    {
      "pair": [
        "e",
        "n"
      ],
      "token": "en"
    },
    {
      "pair": [
        "a",
        "l"
      ],
      "token": "al"
    },
    {
      "pair": [
        "a",
        "s"
      ],
      "token": "as"
    },
    {
      "pair": [
        "a",
        "r"
      ],
      "token": "ar"
    },
    {
      "pair": [
        "i",
        "s"
      ],
      "token": "is"
    },
    {
      "pair": [
        "o",
        "f"
      ],
      "token": "of"
    },
    {
      "pair": [
        "e",
        "s"
      ],
      "token": "es"
    },
    {
      "pair": [
        "an",
        "d"
      ],
      "token": "and"
    },
    {
      "pair": [
        "in",
        "g"
      ],
      "token": "ing"
    },
    {
      "pair": [
        "i",
        "t"
      ],
      "token": "it"
    },
    {
      "pair": [
        "t",
        "o"
      ],
      "token": "to"
    },
    {
      "pair": [
        "i",
        "c"
      ],
      "token": "ic"
    },
    {
      "pair": [
        "r",
        "o"
      ],
      "token": "ro"
    },
    {
      "pair": [
        "i",
        "on"
      ],
      "token": "ion"
    },
    {
      "pair": [
        "s",
        "t"
      ],
      "token": "st"
    },
    {
      "pair": [
        "h",
        "e"
      ],
      "token": "he"
    },
    {
      "pair": [
        "o",
        "u"
      ],
      "token": "ou"
    },
    {
      "pair": [
        "l",
        "e"
      ],
      "token": "le"
    },
    {
      "pair": [
        "i",
        "l"
      ],
      "token": "il"
    },
    {
      "pair": [
        "en",
        "t"
      ],
      "token": "ent"
    },
    {
      "pair": [
        "s",
        "e"
      ],
      "token": "se"
    },
    {
      "pair": [
        "o",
        "l"
      ],
      "token": "ol"
    },
    {
      "pair": [
        "a",
        "d"
      ],
      "token": "ad"
    },
    {
      "pair": [
        "c",
        "h"
      ],
      "token": "ch"
    },
    {
      "pair": [
        "f",
        "or"
      ],
      "token": "for"
    },
    {
      "pair": [
        "a",
        "m"
      ],
      "token": "am"
    },
    {
      "pair": [
        "e",
        "l"
      ],
      "token": "el"
    },
    {
      "pair": [
        "o",
        "m"
      ],
      "token": "om"
    },
    {
      "pair": [
        "w",
        "as"
      ],
      "token": "was"
    },
    {
      "pair": [
        "c",
        "t"
      ],
      "token": "ct"
    },
    {
      "pair": [
        "u",
        "r"
      ],
      "token": "ur"
    },
    {
      "pair": [
        "b",
        "e"
      ],
      "token": "be"
    },
    {
      "pair": [
        "i",
        "m"
      ],
      "token": "im"
    },
    {
      "pair": [
        "i",
        "r"
      ],
      "token": "ir"
    },
    {
      "pair": [
        "l",
        "y"
      ],
      "token": "ly"
    },
    {
      "pair": [
        "@",
        "-"
      ],
      "token": "@-"
    },
    {
      "pair": [
        "@-",
        "@"
      ],
      "token": "@-@"
    },
    {
      "pair": [
        "d",
        "e"
      ],
      "token": "de"
    },
    {
      "pair": [
        "u",
        "n"
      ],
      "token": "un"
    },
    {
      "pair": [
        "i",
        "th"
      ],
      "token": "ith"
    },
    {
      "pair": [
        "o",
        "w"
      ],
      "token": "ow"
    },
    {
      "pair": [
        "T",
        "he"
      ],
      "token": "The"
    },
    {
      "pair": [
        "i",
        "v"
      ],
      "token": "iv"
    },
    {
      "pair": [
        "t",
        "er"
      ],
      "token": "ter"
    },
    {
      "pair": [
        "at",
        "ion"
      ],
      "token": "ation"
    },
    {
      "pair": [
        "i",
        "g"
      ],
      "token": "ig"
    },
    {
      "pair": [
        "r",
        "a"
      ],
      "token": "ra"
    },
    {
      "pair": [
        "w",
        "h"
      ],
      "token": "wh"
    },
    {
      "pair": [
        "c",
        "e"
      ],
      "token": "ce"
    },
    {
      "pair": [
        "th",
        "at"
      ],
      "token": "that"
    },
    {
      "pair": [
        "w",
        "ith"
      ],
      "token": "with"
    },
    {
      "pair": [
        "\n",
        "\n"
      ],
      "token": "\n\n"
    },
    {
      "pair": [
        "a",
        "y"
      ],
      "token": "ay"
    },
    {
      "pair": [
        "c",
        "on"
      ],
      "token": "con"
    },
    {
      "pair": [
        "u",
        "m"
      ],
      "token": "um"
    },
    {
      "pair": [
        "er",
        "e"
      ],
      "token": "ere"
    },
    {
      "pair": [
        ".",
        "\n\n"
      ],
      "token": ".\n\n"
    },
    {
      "pair": [
        "u",
        "l"
      ],
      "token": "ul"
    },
    {
      "pair": [
        "u",
        "s"
      ],
      "token": "us"
    },
    {
      "pair": [
        "'",
        "s"
      ],
      "token": "'s"
    },
    {
      "pair": [
        "o",
        "t"
      ],
      "token": "ot"
    },
    {
      "pair": [
        "v",
        "er"
      ],
      "token": "ver"
    },
    {
      "pair": [
        "i",
        "d"
      ],
      "token": "id"
    },
    {
      "pair": [
        "b",
        "y"
      ],
      "token": "by"
    },
    {
      "pair": [
        "a",
        "g"
      ],
      "token": "ag"
    },
    {
      "pair": [
        "e",
        "t"
      ],
      "token": "et"
    },
    {
      "pair": [
        "h",
        "is"
      ],
      "token": "his"
    },
    {
      "pair": [
        "u",
        "t"
      ],
      "token": "ut"
    },
    {
      "pair": [
        "e",
        "m"
      ],
      "token": "em"
    },
    {
      "pair": [
        "er",
        "s"
      ],
      "token": "ers"
    },
    {
      "pair": [
        "p",
        "l"
      ],
      "token": "pl"
    },
    {
      "pair": [
        "a",
        "v"
      ],
      "token": "av"
    },
    {
      "pair": [
        "ro",
        "m"
      ],
      "token": "rom"
    },
    {
      "pair": [
        "1",
        "9"
      ],
      "token": "19"
    },
    {
      "pair": [
        "re",
        "s"
      ],
      "token": "res"
    },
    {
      "pair": [
        "a",
        "c"
      ],
      "token": "ac"
    },
    {
      "pair": [
        "o",
        "d"
      ],
      "token": "od"
    },
    {
      "pair": [
        "c",
        "om"
      ],
      "token": "com"
    },
    {
      "pair": [
        "o",
        "p"
      ],
      "token": "op"
    },
    {
      "pair": [
        "al",
        "l"
      ],
      "token": "all"
    },
    {
      "pair": [
        "s",
        "h"
      ],
      "token": "sh"
    },
    {
      "pair": [
        "s",
        "u"
      ],
      "token": "su"
    },
    {
      "pair": [
        "a",
        "p"
      ],
      "token": "ap"
    },
    {
      "pair": [
        "a",
        "b"
      ],
      "token": "ab"
    },
    {
      "pair": [
        "I",
        "n"
      ],
      "token": "In"
    },
    {
      "pair": [
        "i",
        "es"
      ],
      "token": "ies"
    },
    {
      "pair": [
        "is",
        "t"
      ],
      "token": "ist"
    },
    {
      "pair": [
        "p",
        "ro"
      ],
      "token": "pro"
    },
    {
      "pair": [
        "es",
        "t"
      ],
      "token": "est"
    },
    {
      "pair": [
        "0",
        "0"
      ],
      "token": "00"
    },
    {
      "pair": [
        "l",
        "o"
      ],
      "token": "lo"
    },
    {
      "pair": [
        "w",
        "ere"
      ],
      "token": "were"
    },
    {
      "pair": [
        "p",
        "e"
      ],
      "token": "pe"
    },
    {
      "pair": [
        "a",
        "in"
      ],
      "token": "ain"
    },
    {
      "pair": [
        "e",
        "x"
      ],
      "token": "ex"
    },
    {
      "pair": [
        "f",
        "rom"
      ],
      "token": "from"
    },
    {
      "pair": [
        "or",
        "d"
      ],
      "token": "ord"
    },
    {
      "pair": [
        "ar",
        "t"
      ],
      "token": "art"
    },
    {
      "pair": [
        "a",
        "re"
      ],
      "token": "are"
    },
    {
      "pair": [
        "r",
        "i"
      ],
      "token": "ri"
    },
    {
      "pair": [
        "is",
        "h"
      ],
      "token": "ish"
    },
    {
      "pair": [
        "s",
        "o"
      ],
      "token": "so"
    },
    {
      "pair": [
        "n",
        "e"
      ],
      "token": "ne"
    },
    {
      "pair": [
        "ig",
        "h"
      ],
      "token": "igh"
    },
    {
      "pair": [
        "an",
        "t"
      ],
      "token": "ant"
    },
    {
      "pair": [
        "p",
        "o"
      ],
      "token": "po"
    },
    {
      "pair": [
        "th",
        "er"
      ],
      "token": "ther"
    },
    {
      "pair": [
        "en",
        "d"
      ],
      "token": "end"
    },
    {
      "pair": [
        "i",
        "f"
      ],
      "token": "if"
    },
    {
      "pair": [
        "ou",
        "n"
      ],
      "token": "oun"
    },
    {
      "pair": [
        "ic",
        "h"
      ],
      "token": "ich"
    },
    {
      "pair": [
        "at",
        "e"
      ],
      "token": "ate"
    },
    {
      "pair": [
        "or",
        "t"
      ],
      "token": "ort"
    },
    {
      "pair": [
        "at",
        "ed"
      ],
      "token": "ated"
    },
    {
      "pair": [
        "b",
        "er"
      ],
      "token": "ber"
    },
    {
      "pair": [
        "c",
        "l"
      ],
      "token": "cl"
    },
    {
      "pair": [
        "m",
        "an"
      ],
      "token": "man"
    },
    {
      "pair": [
        "t",
        "e"
      ],
      "token": "te"
    },
    {
      "pair": [
        "p",
        "er"
      ],
      "token": "per"
    },
    {
      "pair": [
        "g",
        "h"
      ],
      "token": "gh"
    },
    {
      "pair": [
        "on",
        "g"
      ],
      "token": "ong"
    },
    {
      "pair": [
        "r",
        "it"
      ],
      "token": "rit"
    },
    {
      "pair": [
        "ar",
        "d"
      ],
      "token": "ard"
    },
    {
      "pair": [
        "am",
        "e"
      ],
      "token": "ame"
    },
    {
      "pair": [
        "a",
        "k"
      ],
      "token": "ak"
    },
    {
      "pair": [
        "es",
        "s"
      ],
      "token": "ess"
    },
    {
      "pair": [
        "e",
        "ar"
      ],
      "token": "ear"
    },
    {
      "pair": [
        "l",
        "d"
      ],
      "token": "ld"
    },
    {
      "pair": [
        "il",
        "l"
      ],
      "token": "ill"
    },
    {
      "pair": [
        "q",
        "u"
      ],
      "token": "qu"
    },
    {
      "pair": [
        "r",
        "u"
      ],
      "token": "ru"
    },
    {
      "pair": [
        "it",
        "y"
      ],
      "token": "ity"
    },
    {
      "pair": [
        "a",
        "ct"
      ],
      "token": "act"
    },
    {
      "pair": [
        "h",
        "ad"
      ],
      "token": "had"
    },
    {
      "pair": [
        "ow",
        "n"
      ],
      "token": "own"
    },
    {
      "pair": [
        "on",
        "e"
      ],
      "token": "one"
    },
    {
      "pair": [
        "i",
        "p"
      ],
      "token": "ip"
    },
    {
      "pair": [
        "un",
        "d"
      ],
      "token": "und"
    },
    {
      "pair": [
        "wh",
        "ich"
      ],
      "token": "which"
    },
    {
      "pair": [
        "i",
        "an"
      ],
      "token": "ian"
    },
    {
      "pair": [
        "ou",
        "t"
      ],
      "token": "out"
    },
    {
      "pair": [
        "i",
        "al"
      ],
      "token": "ial"
    },
    {
      "pair": [
        "m",
        "ent"
      ],
      "token": "ment"
    },
    {
      "pair": [
        "r",
        "an"
      ],
      "token": "ran"
    },
    {
      "pair": [
        "u",
        "p"
      ],
      "token": "up"
    },
    {
      "pair": [
        "u",
        "d"
      ],
      "token": "ud"
    },
    {
      "pair": [
        "m",
        "o"
      ],
      "token": "mo"
    },
    {
      "pair": [
        "iv",
        "e"
      ],
      "token": "ive"
    },
    {
      "pair": [
        "i",
        "e"
      ],
      "token": "ie"
    },
    {
      "pair": [
        "o",
        "ver"
      ],
      "token": "over"
    },
    {
      "pair": [
        "t",
        "w"
      ],
      "token": "tw"
    },
    {
      "pair": [
        "i",
        "a"
      ],
      "token": "ia"
    },
    {
      "pair": [
        "p",
        "t"
      ],
      "token": "pt"
    },
    {
      "pair": [
        "c",
        "k"
      ],
      "token": "ck"
    },
    {
      "pair": [
        "n",
        "ot"
      ],
      "token": "not"
    },
    {
      "pair": [
        "h",
        "er"
      ],
      "token": "her"
    },
    {
      "pair": [
        "p",
        "ort"
      ],
      "token": "port"
    },
    {
      "pair": [
        "o",
        "g"
      ],
      "token": "og"
    },
    {
      "pair": [
        "C",
        "h"
      ],
      "token": "Ch"
    },
    {
      "pair": [
        "as",
        "s"
      ],
      "token": "ass"
    },
    {
      "pair": [
        "ou",
        "r"
      ],
      "token": "our"
    },
    {
      "pair": [
        "igh",
        "t"
      ],
      "token": "ight"
    },
    {
      "pair": [
        "ar",
        "y"
      ],
      "token": "ary"
    },
    {
      "pair": [
        "2",
        "0"
      ],
      "token": "20"
    },
    {
      "pair": [
        "S",
        "t"
      ],
      "token": "St"
    },
    {
      "pair": [
        "d",
        "u"
      ],
      "token": "du"
    },
    {
      "pair": [
        "or",
        "k"
      ],
      "token": "ork"
    },
    {
      "pair": [
        "as",
        "t"
      ],
      "token": "ast"
    },
    {
      "pair": [
        "av",
        "e"
      ],
      "token": "ave"
    },
    {
      "pair": [
        "in",
        "t"
      ],
      "token": "int"
    },
    {
      "pair": [
        "in",
        "e"
      ],
      "token": "ine"
    },
    {
      "pair": [
        "b",
        "ut"
      ],
      "token": "but"
    },
    {
      "pair": [
        "a",
        "f"
      ],
      "token": "af"
    },
    {
      "pair": [
        "it",
        "s"
      ],
      "token": "its"
    },
    {
      "pair": [
        "ic",
        "al"
      ],
      "token": "ical"
    },
    {
      "pair": [
        "or",
        "e"
      ],
      "token": "ore"
    },
    {
      "pair": [
        "al",
        "so"
      ],
      "token": "also"
    },
    {
      "pair": [
        "for",
        "m"
      ],
      "token": "form"
    },
    {
      "pair": [
        "i",
        "de"
      ],
      "token": "ide"
    },
    {
      "pair": [
        "2",
        "00"
      ],
      "token": "200"
    },
    {
      "pair": [
        "p",
        "r"
      ],
      "token": "pr"
    },
    {
      "pair": [
        "s",
        "c"
      ],
      "token": "sc"
    },
    {
      "pair": [
        "con",
        "t"
      ],
      "token": "cont"
    },
    {
      "pair": [
        "at",
        "t"
      ],
      "token": "att"
    },
    {
      "pair": [
        "f",
        "ir"
      ],
      "token": "fir"
    },
    {
      "pair": [
        "t",
        "im"
      ],
      "token": "tim"
    },
    {
      "pair": [
        "the",
        "ir"
      ],
      "token": "their"
    },
    {
      "pair": [
        "g",
        "e"
      ],
      "token": "ge"
    },
    {
      "pair": [
        "re",
        "c"
      ],
      "token": "rec"
    },
    {
      "pair": [
        "p",
        "h"
      ],
      "token": "ph"
    },
    {
      "pair": [
        "a",
        "ch"
      ],
      "token": "ach"
    },
    {
      "pair": [
        "ou",
        "s"
      ],
      "token": "ous"
    },
    {
      "pair": [
        "a",
        "ir"
      ],
      "token": "air"
    },
    {
      "pair": [
        "it",
        "ion"
      ],
      "token": "ition"
    },
    {
      "pair": [
        "u",
        "b"
      ],
      "token": "ub"
    },
    {
      "pair": [
        "el",
        "l"
      ],
      "token": "ell"
    },
    {
      "pair": [
        "ig",
        "n"
      ],
      "token": "ign"
    },
    {
      "pair": [
        "p",
        "art"
      ],
      "token": "part"
    },
    {
      "pair": [
        "H",
        "e"
      ],
      "token": "He"
    },
    {
      "pair": [
        "ou",
        "ld"
      ],
      "token": "ould"
    },
    {
      "pair": [
        "u",
        "re"
      ],
      "token": "ure"
    },
    {
      "pair": [
        "ol",
        "d"
      ],
      "token": "old"
    },
    {
      "pair": [
        "oun",
        "d"
      ],
      "token": "ound"
    },
    {
      "pair": [
        "b",
        "o"
      ],
      "token": "bo"
    },
    {
      "pair": [
        "p",
        "res"
      ],
      "token": "pres"
    },
    {
      "pair": [
        "A",
        "l"
      ],
      "token": "Al"
    },
    {
      "pair": [
        "e",
        "v"
      ],
      "token": "ev"
    },
    {
      "pair": [
        "pl",
        "ay"
      ],
      "token": "play"
    },
    {
      "pair": [
        "f",
        "e"
      ],
      "token": "fe"
    },
    {
      "pair": [
        "a",
        "w"
      ],
      "token": "aw"
    },
    {
      "pair": [
        "om",
        "e"
      ],
      "token": "ome"
    },
    {
      "pair": [
        "i",
        "re"
      ],
      "token": "ire"
    },
    {
      "pair": [
        "ol",
        "l"
      ],
      "token": "oll"
    },
    {
      "pair": [
        "at",
        "er"
      ],
      "token": "ater"
    },
    {
      "pair": [
        "wh",
        "o"
      ],
      "token": "who"
    },
    {
      "pair": [
        "ct",
        "ion"
      ],
      "token": "ction"
    },
    {
      "pair": [
        "ac",
        "k"
      ],
      "token": "ack"
    },
    {
      "pair": [
        "h",
        "as"
      ],
      "token": "has"
    },
    {
      "pair": [
        "fir",
        "st"
      ],
      "token": "first"
    },
    {
      "pair": [
        "T",
        "h"
      ],
      "token": "Th"
    },
    {
      "pair": [
        "ou",
        "gh"
      ],
      "token": "ough"
    },
    {
      "pair": [
        "f",
        "er"
      ],
      "token": "fer"
    },
    {
      "pair": [
        "A",
        "n"
      ],
      "token": "An"
    },
    {
      "pair": [
        "u",
        "st"
      ],
      "token": "ust"
    },
    {
      "pair": [
        "ur",
        "ing"
      ],
      "token": "uring"
    },
    {
      "pair": [
        "ul",
        "t"
      ],
      "token": "ult"
    },
    {
      "pair": [
        "20",
        "1"
      ],
      "token": "201"
    },
    {
      "pair": [
        "c",
        "re"
      ],
      "token": "cre"
    },
    {
      "pair": [
        "po",
        "s"
      ],
      "token": "pos"
    },
    {
      "pair": [
        "ar",
        "k"
      ],
      "token": "ark"
    },
    {
      "pair": [
        "o",
        "ther"
      ],
      "token": "other"
    },
    {
      "pair": [
        "o",
        "v"
      ],
      "token": "ov"
    },
    {
      "pair": [
        "re",
        "e"
      ],
      "token": "ree"
    },
    {
      "pair": [
        "c",
        "o"
      ],
      "token": "co"
    },
    {
      "pair": [
        "il",
        "m"
      ],
      "token": "ilm"
    },
    {
      "pair": [
        "en",
        "ce"
      ],
      "token": "ence"
    },
    {
      "pair": [
        "ag",
        "e"
      ],
      "token": "age"
    },
    {
      "pair": [
        "a",
        "u"
      ],
      "token": "au"
    },
    {
      "pair": [
        "s",
        "p"
      ],
      "token": "sp"
    },
    {
      "pair": [
        "th",
        "is"
      ],
      "token": "this"
    },
    {
      "pair": [
        "h",
        "ave"
      ],
      "token": "have"
    },
    {
      "pair": [
        "k",
        "e"
      ],
      "token": "ke"
    },
    {
      "pair": [
        "sh",
        "ip"
      ],
      "token": "ship"
    },
    {
      "pair": [
        "be",
        "en"
      ],
      "token": "been"
    },
    {
      "pair": [
        "m",
        "on"
      ],
      "token": "mon"
    },
    {
      "pair": [
        "tw",
        "o"
      ],
      "token": "two"
    },
    {
      "pair": [
        "s",
        "pe"
      ],
      "token": "spe"
    },
    {
      "pair": [
        "@",
        "."
      ],
      "token": "@."
    },
    {
      "pair": [
        "@.",
        "@"
      ],
      "token": "@.@"
    },
    {
      "pair": [
        "f",
        "t"
      ],
      "token": "ft"
    },
    {
      "pair": [
        "com",
        "p"
      ],
      "token": "comp"
    },
    {
      "pair": [
        "al",
        "ly"
      ],
      "token": "ally"
    },
    {
      "pair": [
        "s",
        "er"
      ],
      "token": "ser"
    },
    {
      "pair": [
        "b",
        "um"
      ],
      "token": "bum"
    },
    {
      "pair": [
        "g",
        "od"
      ],
      "token": "god"
    },
    {
      "pair": [
        "ation",
        "s"
      ],
      "token": "ations"
    },
    {
      "pair": [
        "i",
        "z"
      ],
      "token": "iz"
    },
    {
      "pair": [
        "u",
        "e"
      ],
      "token": "ue"
    },
    {
      "pair": [
        "1",
        "8"
      ],
      "token": "18"
    },
    {
      "pair": [
        "d",
        "is"
      ],
      "token": "dis"
    },
    {
      "pair": [
        "ar",
        "ch"
      ],
      "token": "arch"
    },
    {
      "pair": [
        "s",
        "he"
      ],
      "token": "she"
    },
    {
      "pair": [
        "or",
        "y"
      ],
      "token": "ory"
    },
    {
      "pair": [
        "al",
        "bum"
      ],
      "token": "album"
    },
    {
      "pair": [
        "of",
        "f"
      ],
      "token": "off"
    },
    {
      "pair": [
        "t",
        "ra"
      ],
      "token": "tra"
    },
    {
      "pair": [
        "in",
        "d"
      ],
      "token": "ind"
    },
    {
      "pair": [
        "i",
        "le"
      ],
      "token": "ile"
    },
    {
      "pair": [
        "y",
        "ear"
      ],
      "token": "year"
    },
    {
      "pair": [
        "m",
        "e"
      ],
      "token": "me"
    },
    {
      "pair": [
        "g",
        "ro"
      ],
      "token": "gro"
    },
    {
      "pair": [
        "it",
        "ies"
      ],
      "token": "ities"
    },
    {
      "pair": [
        "ad",
        "e"
      ],
      "token": "ade"
    },
    {
      "pair": [
        "o",
        "c"
      ],
      "token": "oc"
    },
    {
      "pair": [
        "d",
        "es"
      ],
      "token": "des"
    },
    {
      "pair": [
        "r",
        "y"
      ],
      "token": "ry"
    },
    {
      "pair": [
        ".\n\n",
        "The"
      ],
      "token": ".\n\nThe"
    },
    {
      "pair": [
        "o",
        "k"
      ],
      "token": "ok"
    },
    {
      "pair": [
        "I",
        "t"
      ],
      "token": "It"
    },
    {
      "pair": [
        "af",
        "ter"
      ],
      "token": "after"
    },
    {
      "pair": [
        "U",
        "n"
      ],
      "token": "Un"
    },
    {
      "pair": [
        "ol",
        "og"
      ],
      "token": "olog"
    },
    {
      "pair": [
        "it",
        "e"
      ],
      "token": "ite"
    },
    {
      "pair": [
        "A",
        "r"
      ],
      "token": "Ar"
    },
    {
      "pair": [
        "f",
        "ilm"
      ],
      "token": "film"
    },
    {
      "pair": [
        "as",
        "on"
      ],
      "token": "ason"
    },
    {
      "pair": [
        "it",
        "ed"
      ],
      "token": "ited"
    },
    {
      "pair": [
        "f",
        "l"
      ],
      "token": "fl"
    },
    {
      "pair": [
        "ord",
        "an"
      ],
      "token": "ordan"
    },
    {
      "pair": [
        "p",
        "re"
      ],
      "token": "pre"
    },
    {
      "pair": [
        "v",
        "ed"
      ],
      "token": "ved"
    },
    {
      "pair": [
        "tim",
        "e"
      ],
      "token": "time"
    },
    {
      "pair": [
        "J",
        "ordan"
      ],
      "token": "Jordan"
    },
    {
      "pair": [
        "l",
        "i"
      ],
      "token": "li"
    },
    {
      "pair": [
        "el",
        "y"
      ],
      "token": "ely"
    },
    {
      "pair": [
        "@",
        ","
      ],
      "token": "@,"
    },
    {
      "pair": [
        "@,",
        "@"
      ],
      "token": "@,@"
    },
    {
      "pair": [
        "v",
        "e"
      ],
      "token": "ve"
    },
    {
      "pair": [
        "m",
        "ain"
      ],
      "token": "main"
    },
    {
      "pair": [
        "r",
        "on"
      ],
      "token": "ron"
    },
    {
      "pair": [
        "as",
        "ed"
      ],
      "token": "ased"
    },
    {
      "pair": [
        "c",
        "ed"
      ],
      "token": "ced"
    },
    {
      "pair": [
        "P",
        "ol"
      ],
      "token": "Pol"
    },
    {
      "pair": [
        "w",
        "ork"
      ],
      "token": "work"
    },
    {
      "pair": [
        "re",
        "g"
      ],
      "token": "reg"
    },
    {
      "pair": [
        "m",
        "er"
      ],
      "token": "mer"
    },
    {
      "pair": [
        "ent",
        "s"
      ],
      "token": "ents"
    },
    {
      "pair": [
        "in",
        "cl"
      ],
      "token": "incl"
    },
    {
      "pair": [
        "ne",
        "w"
      ],
      "token": "new"
    },
    {
      "pair": [
        "S",
        "h"
      ],
      "token": "Sh"
    },
    {
      "pair": [
        "und",
        "er"
      ],
      "token": "under"
    },
    {
      "pair": [
        "th",
        "ough"
      ],
      "token": "though"
    },
    {
      "pair": [
        "ub",
        "l"
      ],
      "token": "ubl"
    },
    {
      "pair": [
        "ic",
        "t"
      ],
      "token": "ict"
    },
    {
      "pair": [
        "l",
        "and"
      ],
      "token": "land"
    },
    {
      "pair": [
        "m",
        "ore"
      ],
      "token": "more"
    },
    {
      "pair": [
        "the",
        "y"
      ],
      "token": "they"
    },
    {
      "pair": [
        "u",
        "gh"
      ],
      "token": "ugh"
    },
    {
      "pair": [
        "an",
        "ce"
      ],
      "token": "ance"
    },
    {
      "pair": [
        "in",
        "ter"
      ],
      "token": "inter"
    },
    {
      "pair": [
        "B",
        "rit"
      ],
      "token": "Brit"
    },
    {
      "pair": [
        "mo",
        "st"
      ],
      "token": "most"
    },
    {
      "pair": [
        "i",
        "ed"
      ],
      "token": "ied"
    },
    {
      "pair": [
        "i",
        "b"
      ],
      "token": "ib"
    },
    {
      "pair": [
        "al",
        "s"
      ],
      "token": "als"
    },
    {
      "pair": [
        "i",
        "ous"
      ],
      "token": "ious"
    },
    {
      "pair": [
        "ab",
        "le"
      ],
      "token": "able"
    },
    {
      "pair": [
        "se",
        "l"
      ],
      "token": "sel"
    },
    {
      "pair": [
        "s",
        "a"
      ],
      "token": "sa"
    },
    {
      "pair": [
        "a",
        "e"
      ],
      "token": "ae"
    },
    {
      "pair": [
        "ro",
        "ugh"
      ],
      "token": "rough"
    },
    {
      "pair": [
        "an",
        "n"
      ],
      "token": "ann"
    },
    {
      "pair": [
        "e",
        "w"
      ],
      "token": "ew"
    },
    {
      "pair": [
        "c",
        "ess"
      ],
      "token": "cess"
    },
    {
      "pair": [
        "p",
        "ubl"
      ],
      "token": "publ"
    },
    {
      "pair": [
        "c",
        "es"
      ],
      "token": "ces"
    },
    {
      "pair": [
        "el",
        "er"
      ],
      "token": "eler"
    },
    {
      "pair": [
        "in",
        "to"
      ],
      "token": "into"
    },
    {
      "pair": [
        "l",
        "es"
      ],
      "token": "les"
    },
    {
      "pair": [
        "g",
        "an"
      ],
      "token": "gan"
    },
    {
      "pair": [
        "as",
        "e"
      ],
      "token": "ase"
    },
    {
      "pair": [
        "spe",
        "c"
      ],
      "token": "spec"
    },
    {
      "pair": [
        "W",
        "he"
      ],
      "token": "Whe"
    },
    {
      "pair": [
        "re",
        "t"
      ],
      "token": "ret"
    },
    {
      "pair": [
        "rec",
        "ord"
      ],
      "token": "record"
    },
    {
      "pair": [
        "r",
        "ed"
      ],
      "token": "red"
    },
    {
      "pair": [
        "h",
        "im"
      ],
      "token": "him"
    },
    {
      "pair": [
        "ct",
        "ed"
      ],
      "token": "cted"
    },
    {
      "pair": [
        "re",
        "n"
      ],
      "token": "ren"
    },
    {
      "pair": [
        "e",
        "ver"
      ],
      "token": "ever"
    },
    {
      "pair": [
        "R",
        "o"
      ],
      "token": "Ro"
    },
    {
      "pair": [
        "19",
        "9"
      ],
      "token": "199"
    },
    {
      "pair": [
        "re",
        "le"
      ],
      "token": "rele"
    },
    {
      "pair": [
        "Whe",
        "eler"
      ],
      "token": "Wheeler"
    },
    {
      "pair": [
        "t",
        "en"
      ],
      "token": "ten"
    },
    {
      "pair": [
        "ic",
        "e"
      ],
      "token": "ice"
    },
    {
      "pair": [
        "se",
        "ason"
      ],
      "token": "season"
    },
    {
      "pair": [
        "con",
        "d"
      ],
      "token": "cond"
    },
    {
      "pair": [
        "f",
        "in"
      ],
      "token": "fin"
    },
    {
      "pair": [
        "us",
        "ed"
      ],
      "token": "used"
    },
    {
      "pair": [
        "the",
        "m"
      ],
      "token": "them"
    },
    {
      "pair": [
        "ur",
        "n"
      ],
      "token": "urn"
    },
    {
      "pair": [
        "s",
        "ing"
      ],
      "token": "sing"
    },
    {
      "pair": [
        "il",
        "d"
      ],
      "token": "ild"
    },
    {
      "pair": [
        "incl",
        "ud"
      ],
      "token": "includ"
    },
    {
      "pair": [
        "a",
        "ce"
      ],
      "token": "ace"
    },
    {
      "pair": [
        "m",
        "y"
      ],
      "token": "my"
    },
    {
      "pair": [
        "g",
        "en"
      ],
      "token": "gen"
    },
    {
      "pair": [
        "c",
        "ent"
      ],
      "token": "cent"
    },
    {
      "pair": [
        "ing",
        "s"
      ],
      "token": "ings"
    },
    {
      "pair": [
        "s",
        "on"
      ],
      "token": "son"
    },
    {
      "pair": [
        "em",
        "ber"
      ],
      "token": "ember"
    },
    {
      "pair": [
        "ul",
        "ar"
      ],
      "token": "ular"
    },
    {
      "pair": [
        "R",
        "e"
      ],
      "token": "Re"
    },
    {
      "pair": [
        "F",
        "e"
      ],
      "token": "Fe"
    },
    {
      "pair": [
        "j",
        "e"
      ],
      "token": "je"
    },
    {
      "pair": [
        "ae",
        "olog"
      ],
      "token": "aeolog"
    },
    {
      "pair": [
        "d",
        "uring"
      ],
      "token": "during"
    },
    {
      "pair": [
        "s",
        "y"
      ],
      "token": "sy"
    },
    {
      "pair": [
        "t",
        "y"
      ],
      "token": "ty"
    },
    {
      "pair": [
        "w",
        "ay"
      ],
      "token": "way"
    },
    {
      "pair": [
        "g",
        "o"
      ],
      "token": "go"
    },
    {
      "pair": [
        "s",
        "k"
      ],
      "token": "sk"
    },
    {
      "pair": [
        "o",
        "b"
      ],
      "token": "ob"
    },
    {
      "pair": [
        "an",
        "s"
      ],
      "token": "ans"
    },
    {
      "pair": [
        "su",
        "b"
      ],
      "token": "sub"
    },
    {
      "pair": [
        "m",
        "in"
      ],
      "token": "min"
    },
    {
      "pair": [
        "l",
        "ed"
      ],
      "token": "led"
    },
    {
      "pair": [
        "w",
        "e"
      ],
      "token": "we"
    },
    {
      "pair": [
        "re",
        "l"
      ],
      "token": "rel"
    },
    {
      "pair": [
        "ic",
        "k"
      ],
      "token": "ick"
    },
    {
      "pair": [
        "pro",
        "du"
      ],
      "token": "produ"
    },
    {
      "pair": [
        "w",
        "ould"
      ],
      "token": "would"
    },
    {
      "pair": [
        "an",
        "g"
      ],
      "token": "ang"
    },
    {
      "pair": [
        "on",
        "ly"
      ],
      "token": "only"
    },
    {
      "pair": [
        "com",
        "m"
      ],
      "token": "comm"
    },
    {
      "pair": [
        "ar",
        "g"
      ],
      "token": "arg"
    },
    {
      "pair": [
        "n",
        "um"
      ],
      "token": "num"
    },
    {
      "pair": [
        "t",
        "ed"
      ],
      "token": "ted"
    },
    {
      "pair": [
        "D",
        "e"
      ],
      "token": "De"
    },
    {
      "pair": [
        "or",
        "s"
      ],
      "token": "ors"
    },
    {
      "pair": [
        "s",
        "ion"
      ],
      "token": "sion"
    },
    {
      "pair": [
        "st",
        "ru"
      ],
      "token": "stru"
    },
    {
      "pair": [
        "at",
        "es"
      ],
      "token": "ates"
    },
    {
      "pair": [
        "c",
        "ame"
      ],
      "token": "came"
    },
    {
      "pair": [
        "for",
        "e"
      ],
      "token": "fore"
    },
    {
      "pair": [
        "v",
        "el"
      ],
      "token": "vel"
    },
    {
      "pair": [
        "man",
        "y"
      ],
      "token": "many"
    },
    {
      "pair": [
        "be",
        "ing"
      ],
      "token": "being"
    },
    {
      "pair": [
        "p",
        "p"
      ],
      "token": "pp"
    },
    {
      "pair": [
        "t",
        "s"
      ],
      "token": "ts"
    },
    {
      "pair": [
        "us",
        "ic"
      ],
      "token": "usic"
    },
    {
      "pair": [
        "s",
        "ome"
      ],
      "token": "some"
    },
    {
      "pair": [
        "god",
        "s"
      ],
      "token": "gods"
    },
    {
      "pair": [
        "A",
        "s"
      ],
      "token": "As"
    },
    {
      "pair": [
        "ul",
        "l"
      ],
      "token": "ull"
    },
    {
      "pair": [
        "Brit",
        "ish"
      ],
      "token": "British"
    },
    {
      "pair": [
        "ow",
        "er"
      ],
      "token": "ower"
    },
    {
      "pair": [
        "p",
        "ol"
      ],
      "token": "pol"
    },
    {
      "pair": [
        "In",
        "d"
      ],
      "token": "Ind"
    },
    {
      "pair": [
        "or",
        "th"
      ],
      "token": "orth"
    },
    {
      "pair": [
        "po",
        "int"
      ],
      "token": "point"
    },
    {
      "pair": [
        "f",
        "our"
      ],
      "token": "four"
    },
    {
      "pair": [
        "h",
        "igh"
      ],
      "token": "high"
    },
    {
      "pair": [
        "S",
        "e"
      ],
      "token": "Se"
    },
    {
      "pair": [
        "th",
        "ree"
      ],
      "token": "three"
    },
    {
      "pair": [
        "i",
        "x"
      ],
      "token": "ix"
    },
    {
      "pair": [
        "G",
        "er"
      ],
      "token": "Ger"
    },
    {
      "pair": [
        "ation",
        "al"
      ],
      "token": "ational"
    },
    {
      "pair": [
        "g",
        "ame"
      ],
      "token": "game"
    },
    {
      "pair": [
        "v",
        "is"
      ],
      "token": "vis"
    },
    {
      "pair": [
        "T",
        "own"
      ],
      "token": "Town"
    },
    {
      "pair": [
        "u",
        "se"
      ],
      "token": "use"
    },
    {
      "pair": [
        "en",
        "s"
      ],
      "token": "ens"
    },
    {
      "pair": [
        "c",
        "i"
      ],
      "token": "ci"
    },
    {
      "pair": [
        ".\n\n",
        "In"
      ],
      "token": ".\n\nIn"
    },
    {
      "pair": [
        "st",
        "r"
      ],
      "token": "str"
    },
    {
      "pair": [
        "g",
        "y"
      ],
      "token": "gy"
    },
    {
      "pair": [
        "con",
        "s"
      ],
      "token": "cons"
    },
    {
      "pair": [
        "ish",
        "ed"
      ],
      "token": "ished"
    },
    {
      "pair": [
        "w",
        "rit"
      ],
      "token": "writ"
    },
    {
      "pair": [
        "ar",
        "s"
      ],
      "token": "ars"
    },
    {
      "pair": [
        "wh",
        "ile"
      ],
      "token": "while"
    },
    {
      "pair": [
        "je",
        "ct"
      ],
      "token": "ject"
    },
    {
      "pair": [
        "oll",
        "ow"
      ],
      "token": "ollow"
    },
    {
      "pair": [
        "s",
        "ong"
      ],
      "token": "song"
    },
    {
      "pair": [
        "th",
        "rough"
      ],
      "token": "through"
    },
    {
      "pair": [
        "k",
        "n"
      ],
      "token": "kn"
    },
    {
      "pair": [
        "ab",
        "out"
      ],
      "token": "about"
    },
    {
      "pair": [
        "l",
        "ater"
      ],
      "token": "later"
    },
    {
      "pair": [
        "a",
        "z"
      ],
      "token": "az"
    },
    {
      "pair": [
        "the",
        "n"
      ],
      "token": "then"
    },
    {
      "pair": [
        "in",
        "s"
      ],
      "token": "ins"
    },
    {
      "pair": [
        "a",
        "il"
      ],
      "token": "ail"
    },
    {
      "pair": [
        "se",
        "cond"
      ],
      "token": "second"
    },
    {
      "pair": [
        "ra",
        "ft"
      ],
      "token": "raft"
    },
    {
      "pair": [
        "i",
        "el"
      ],
      "token": "iel"
    },
    {
      "pair": [
        "b",
        "u"
      ],
      "token": "bu"
    },
    {
      "pair": [
        "ers",
        "on"
      ],
      "token": "erson"
    },
    {
      "pair": [
        "ter",
        "n"
      ],
      "token": "tern"
    },
    {
      "pair": [
        "th",
        "an"
      ],
      "token": "than"
    },
    {
      "pair": [
        "ard",
        "s"
      ],
      "token": "ards"
    },
    {
      "pair": [
        "an",
        "y"
      ],
      "token": "any"
    },
    {
      "pair": [
        "e",
        "en"
      ],
      "token": "een"
    },
    {
      "pair": [
        "te",
        "am"
      ],
      "token": "team"
    },
    {
      "pair": [
        "wh",
        "ere"
      ],
      "token": "where"
    },
    {
      "pair": [
        "ie",
        "w"
      ],
      "token": "iew"
    },
    {
      "pair": [
        "pres",
        "ent"
      ],
      "token": "present"
    },
    {
      "pair": [
        "su",
        "ch"
      ],
      "token": "such"
    },
    {
      "pair": [
        "m",
        "ade"
      ],
      "token": "made"
    },
    {
      "pair": [
        "t",
        "on"
      ],
      "token": "ton"
    },
    {
      "pair": [
        "r",
        "ic"
      ],
      "token": "ric"
    },
    {
      "pair": [
        "n",
        "o"
      ],
      "token": "no"
    },
    {
      "pair": [
        "I",
        "I"
      ],
      "token": "II"
    },
    {
      "pair": [
        "re",
        "at"
      ],
      "token": "reat"
    },
    {
      "pair": [
        "a",
        "th"
      ],
      "token": "ath"
    },
    {
      "pair": [
        "Y",
        "ork"
      ],
      "token": "York"
    },
    {
      "pair": [
        "Pol",
        "ish"
      ],
      "token": "Polish"
    },
    {
      "pair": [
        "on",
        "y"
      ],
      "token": "ony"
    },
    {
      "pair": [
        "S",
        "he"
      ],
      "token": "She"
    },
    {
      "pair": [
        "wh",
        "en"
      ],
      "token": "when"
    },
    {
      "pair": [
        "c",
        "er"
      ],
      "token": "cer"
    },
    {
      "pair": [
        "ch",
        "ar"
      ],
      "token": "char"
    },
    {
      "pair": [
        "ou",
        "th"
      ],
      "token": "outh"
    },
    {
      "pair": [
        "or",
        "n"
      ],
      "token": "orn"
    },
    {
      "pair": [
        "ak",
        "e"
      ],
      "token": "ake"
    },
    {
      "pair": [
        "ch",
        "o"
      ],
      "token": "cho"
    },
    {
      "pair": [
        "er",
        "ed"
      ],
      "token": "ered"
    },
    {
      "pair": [
        "s",
        "end"
      ],
      "token": "send"
    },
    {
      "pair": [
        "ion",
        "s"
      ],
      "token": "ions"
    }
  ]
}